#ifndef MODEL_DATA_H
#define MODEL_DATA_H

const unsigned char model_data[] = {
  0x1c, 0x00, 0x00, 0x00, 0x54, 0x46, 0x4c, 0x33, 0x14, 0x00, 0x20, 0x00, 
  0x1c, 0x00, 0x18, 0x00, 0x14, 0x00, 0x10, 0x00, 0x0c, 0x00, 0x00, 0x00, 
  0x08, 0x00, 0x04, 0x00, 0x14, 0x00, 0x00, 0x00, 0x1c, 0x00, 0x00, 0x00, 
  0x94, 0x00, 0x00, 0x00, 0xec, 0x00, 0x00, 0x00, 0x10, 0x16, 0x00, 0x00, 
  0x20, 0x16, 0x00, 0x00, 0x18, 0x1b, 0x00, 0x00, 0x03, 0x00, 0x00, 0x00, 
  0x01, 0x00, 0x00, 0x00, 0x10, 0x00, 0x00, 0x00, 0x00, 0x00, 0x0a, 0x00, 
  0x10, 0x00, 0x0c, 0x00, 0x08, 0x00, 0x04, 0x00, 0x0a, 0x00, 0x00, 0x00, 
  0x0c, 0x00, 0x00, 0x00, 0x1c, 0x00, 0x00, 0x00, 0x3c, 0x00, 0x00, 0x00, 
  0x0f, 0x00, 0x00, 0x00, 0x73, 0x65, 0x72, 0x76, 0x69, 0x6e, 0x67, 0x5f, 
  0x64, 0x65, 0x66, 0x61, 0x75, 0x6c, 0x74, 0x00, 0x01, 0x00, 0x00, 0x00, 
  0x04, 0x00, 0x00, 0x00, 0x94, 0xff, 0xff, 0xff, 0x09, 0x00, 0x00, 0x00, 
  0x04, 0x00, 0x00, 0x00, 0x08, 0x00, 0x00, 0x00, 0x6f, 0x75, 0x74, 0x70, 
  0x75, 0x74, 0x5f, 0x30, 0x00, 0x00, 0x00, 0x00, 0x01, 0x00, 0x00, 0x00, 
  0x04, 0x00, 0x00, 0x00, 0xbe, 0xea, 0xff, 0xff, 0x04, 0x00, 0x00, 0x00, 
  0x0b, 0x00, 0x00, 0x00, 0x69, 0x6e, 0x70, 0x75, 0x74, 0x5f, 0x6c, 0x61, 
  0x79, 0x65, 0x72, 0x00, 0x02, 0x00, 0x00, 0x00, 0x34, 0x00, 0x00, 0x00, 
  0x04, 0x00, 0x00, 0x00, 0xdc, 0xff, 0xff, 0xff, 0x0c, 0x00, 0x00, 0x00, 
  0x04, 0x00, 0x00, 0x00, 0x13, 0x00, 0x00, 0x00, 0x43, 0x4f, 0x4e, 0x56, 
  0x45, 0x52, 0x53, 0x49, 0x4f, 0x4e, 0x5f, 0x4d, 0x45, 0x54, 0x41, 0x44, 
  0x41, 0x54, 0x41, 0x00, 0x08, 0x00, 0x0c, 0x00, 0x08, 0x00, 0x04, 0x00, 
  0x08, 0x00, 0x00, 0x00, 0x0b, 0x00, 0x00, 0x00, 0x04, 0x00, 0x00, 0x00, 
  0x13, 0x00, 0x00, 0x00, 0x6d, 0x69, 0x6e, 0x5f, 0x72, 0x75, 0x6e, 0x74, 
  0x69, 0x6d, 0x65, 0x5f, 0x76, 0x65, 0x72, 0x73, 0x69, 0x6f, 0x6e, 0x00, 
  0x0d, 0x00, 0x00, 0x00, 0x20, 0x15, 0x00, 0x00, 0x18, 0x15, 0x00, 0x00, 
  0xc8, 0x14, 0x00, 0x00, 0xb0, 0x0c, 0x00, 0x00, 0x9c, 0x0c, 0x00, 0x00, 
  0x4c, 0x0c, 0x00, 0x00, 0xbc, 0x0b, 0x00, 0x00, 0xac, 0x00, 0x00, 0x00, 
  0xa4, 0x00, 0x00, 0x00, 0x9c, 0x00, 0x00, 0x00, 0x94, 0x00, 0x00, 0x00, 
  0x74, 0x00, 0x00, 0x00, 0x04, 0x00, 0x00, 0x00, 0x6a, 0xeb, 0xff, 0xff, 
  0x04, 0x00, 0x00, 0x00, 0x60, 0x00, 0x00, 0x00, 0x10, 0x00, 0x00, 0x00, 
  0x00, 0x00, 0x00, 0x00, 0x08, 0x00, 0x0e, 0x00, 0x08, 0x00, 0x04, 0x00, 
  0x08, 0x00, 0x00, 0x00, 0x10, 0x00, 0x00, 0x00, 0x24, 0x00, 0x00, 0x00, 
  0x00, 0x00, 0x06, 0x00, 0x08, 0x00, 0x04, 0x00, 0x06, 0x00, 0x00, 0x00, 
  0x04, 0x00, 0x00, 0x00, 0x00, 0x00, 0x00, 0x00, 0x0c, 0x00, 0x18, 0x00, 
  0x14, 0x00, 0x10, 0x00, 0x0c, 0x00, 0x04, 0x00, 0x0c, 0x00, 0x00, 0x00, 
  0x64, 0xa4, 0x34, 0x27, 0x73, 0x69, 0x9c, 0xbe, 0x02, 0x00, 0x00, 0x00, 
  0x02, 0x00, 0x00, 0x00, 0x04, 0x00, 0x00, 0x00, 0x06, 0x00, 0x00, 0x00, 
  0x32, 0x2e, 0x31, 0x39, 0x2e, 0x30, 0x00, 0x00, 0xd6, 0xeb, 0xff, 0xff, 
  0x04, 0x00, 0x00, 0x00, 0x10, 0x00, 0x00, 0x00, 0x31, 0x2e, 0x35, 0x2e, 
  0x30, 0x00, 0x00, 0x00, 0x00, 0x00, 0x00, 0x00, 0x00, 0x00, 0x00, 0x00, 
  0xc0, 0xe6, 0xff, 0xff, 0xc4, 0xe6, 0xff, 0xff, 0xc8, 0xe6, 0xff, 0xff, 
  0xfe, 0xeb, 0xff, 0xff, 0x04, 0x00, 0x00, 0x00, 0x00, 0x0b, 0x00, 0x00, 
  0x43, 0x47, 0x22, 0xbd, 0x22, 0x60, 0x4a, 0x3e, 0xe8, 0x65, 0x3e, 0x3e, 
  0x54, 0x4a, 0x29, 0xbe, 0xb2, 0x20, 0x61, 0xbe, 0x47, 0xa4, 0x14, 0xbe, 
  0x35, 0x20, 0x8a, 0xbe, 0xab, 0x2c, 0x61, 0xbe, 0xe0, 0xed, 0x3d, 0xbe, 
  0x93, 0x08, 0x9a, 0x3d, 0x14, 0x16, 0x4c, 0xbe, 0x9c, 0x77, 0xa9, 0x3a, 
  0x7d, 0xf4, 0xa4, 0xbe, 0x3f, 0xe4, 0xce, 0xbe, 0x3c, 0xaa, 0x69, 0x3e, 
  0x73, 0x05, 0x88, 0xbe, 0xd9, 0x88, 0xd5, 0xbe, 0x34, 0x27, 0x97, 0xbe, 
  0x7c, 0xc8, 0x81, 0x3d, 0x2d, 0x20, 0x1b, 0x3f, 0xc5, 0x06, 0xdb, 0x3d, 
  0x76, 0x96, 0x5f, 0xbd, 0x61, 0xa7, 0x88, 0x3e, 0x4c, 0x38, 0xd3, 0xbd, 
  0x0a, 0x25, 0x9e, 0xbd, 0x80, 0x40, 0x50, 0x37, 0x21, 0x1a, 0x04, 0x3e, 
  0x38, 0x4c, 0x9d, 0x3d, 0x73, 0xb6, 0xae, 0xbe, 0xb3, 0xa3, 0x36, 0xbe, 
  0x46, 0xd0, 0x7f, 0x3d, 0xf1, 0xdd, 0x87, 0xbe, 0x83, 0x1f, 0x4f, 0x3e, 
  0x2e, 0x8c, 0xaa, 0xbe, 0x6a, 0x3b, 0xba, 0xbd, 0xbd, 0xd5, 0xe1, 0x3c, 
  0x7f, 0x36, 0x88, 0x3e, 0xc9, 0x93, 0x1d, 0x3f, 0x9f, 0xc8, 0x9f, 0xbd, 
  0x40, 0x5a, 0x18, 0x3e, 0x04, 0x86, 0x50, 0xbd, 0x9c, 0x7f, 0x63, 0xbe, 
  0x15, 0x81, 0x5f, 0x3e, 0x7e, 0x91, 0x85, 0x3f, 0xd5, 0x2f, 0x7e, 0xbe, 
  0x8e, 0xf9, 0x7c, 0x3c, 0x07, 0xbc, 0x43, 0xbd, 0x05, 0x6c, 0x2d, 0x3e, 
  0xeb, 0x8f, 0xf9, 0x3c, 0x08, 0xba, 0x25, 0x3e, 0x0f, 0xd0, 0x83, 0x3d, 
  0x7f, 0xe3, 0xad, 0xbc, 0x5f, 0x00, 0x1f, 0x3e, 0xf6, 0xf8, 0x77, 0xbc, 
  0x59, 0x17, 0x8f, 0xbb, 0xe7, 0xc7, 0xd9, 0xbd, 0x0b, 0xa7, 0xe8, 0x3d, 
  0xa6, 0xf0, 0x21, 0xba, 0xa5, 0x17, 0xa1, 0x3d, 0x9b, 0x8b, 0xf4, 0x3e, 
  0x06, 0x7e, 0x36, 0xbd, 0x9f, 0xd1, 0xa5, 0xbd, 0xad, 0xe4, 0xab, 0xbe, 
  0xc0, 0x6a, 0xfe, 0xbe, 0x94, 0xf4, 0xb7, 0x3d, 0x85, 0xdd, 0x05, 0x3f, 
  0x5e, 0xba, 0xa1, 0xbc, 0x04, 0xc1, 0xbd, 0xbd, 0x65, 0xd8, 0x4e, 0x3e, 
  0x16, 0x91, 0x1c, 0xbe, 0xd6, 0xe6, 0xce, 0xbe, 0xa5, 0x86, 0x0a, 0x3e, 
  0x8b, 0xc7, 0xa8, 0xbe, 0x6c, 0x18, 0x8e, 0xbe, 0x71, 0xf7, 0xed, 0x3c, 
  0x6d, 0x39, 0x74, 0xbe, 0x5a, 0x12, 0x7e, 0xbd, 0x87, 0xee, 0xdf, 0xbd, 
  0x45, 0x64, 0xbe, 0xbe, 0x3b, 0x99, 0xe8, 0xbe, 0x15, 0x0e, 0x34, 0xbe, 
  0xed, 0x75, 0x08, 0xbf, 0x09, 0x6e, 0xb4, 0xbd, 0x0a, 0x51, 0x90, 0x3e, 
  0x99, 0xb8, 0x85, 0x3e, 0x8a, 0x81, 0x95, 0x3e, 0x96, 0x3f, 0x6d, 0xbd, 
  0x1a, 0xce, 0x83, 0x3e, 0xd0, 0x11, 0x21, 0x3c, 0x97, 0x11, 0xd8, 0xbc, 
  0xa4, 0x20, 0xc7, 0x3d, 0x60, 0xda, 0x4a, 0x3e, 0xb0, 0xc1, 0xc7, 0x3d, 
  0x28, 0x6f, 0x96, 0x3e, 0x93, 0xaa, 0x3c, 0x3e, 0x16, 0xd1, 0x15, 0xbd, 
  0xad, 0x85, 0x0f, 0xbe, 0xfa, 0xde, 0x44, 0xbe, 0x39, 0x29, 0x2b, 0xbe, 
  0x30, 0x56, 0x16, 0xbe, 0x51, 0xee, 0xd2, 0xbd, 0x95, 0xe4, 0x55, 0x3b, 
  0xb5, 0xd6, 0x41, 0xbe, 0xee, 0x98, 0xd4, 0x3c, 0x37, 0x27, 0xf7, 0x3c, 
  0x9c, 0x93, 0x01, 0x3e, 0x37, 0xb3, 0x57, 0x3e, 0xe1, 0x92, 0xcf, 0x3c, 
  0x69, 0x1e, 0x21, 0xbf, 0x0e, 0x62, 0x00, 0xbf, 0xd9, 0x43, 0x5f, 0xbe, 
  0xeb, 0xc7, 0x5e, 0x3d, 0xe5, 0xdf, 0x81, 0x3e, 0x3f, 0x75, 0x20, 0xbc, 
  0xce, 0xe2, 0xcb, 0x3c, 0x40, 0x9a, 0x47, 0xbe, 0xca, 0x38, 0xaa, 0xba, 
  0xf4, 0xdc, 0x20, 0xbe, 0x57, 0xc2, 0x13, 0x3e, 0x62, 0x64, 0x90, 0x3c, 
  0x2a, 0xbd, 0xeb, 0x3d, 0xae, 0xe2, 0x98, 0xbe, 0x04, 0x97, 0xa0, 0x3e, 
  0x56, 0xa0, 0x9b, 0x3b, 0x02, 0xee, 0x2c, 0x3e, 0x84, 0x74, 0x3c, 0x3e, 
  0xaa, 0xb1, 0x88, 0x3c, 0x31, 0x8a, 0x0d, 0x3d, 0x26, 0x3e, 0x2e, 0xbf, 
  0x1e, 0x95, 0x96, 0x3f, 0x4e, 0xf8, 0xd1, 0x3d, 0xea, 0x0e, 0x42, 0x3e, 
  0xf1, 0x97, 0xe3, 0xbd, 0x6f, 0x71, 0x74, 0x3d, 0xd7, 0x31, 0xc6, 0xbd, 
  0xbe, 0x92, 0x88, 0x3d, 0x76, 0xca, 0xd1, 0xbd, 0xb3, 0x06, 0x8a, 0xbc, 
  0x11, 0x7e, 0xf9, 0xbc, 0xc4, 0x39, 0xe0, 0x3d, 0xd8, 0xad, 0xd0, 0x3c, 
  0x0a, 0x01, 0x34, 0xbd, 0x51, 0xbd, 0x84, 0x3d, 0x22, 0x20, 0x59, 0x3e, 
  0xb6, 0xb3, 0x98, 0xbc, 0xde, 0xde, 0x11, 0xbc, 0x14, 0x50, 0x9e, 0x3d, 
  0x3e, 0x7c, 0x97, 0x3e, 0x37, 0xbe, 0x02, 0xbd, 0x75, 0xe4, 0x6a, 0x3d, 
  0x0f, 0xae, 0xbc, 0x3e, 0x7c, 0xeb, 0x7e, 0x3f, 0xb0, 0x84, 0x1d, 0x3f, 
  0xb2, 0xb0, 0xcc, 0xbe, 0xce, 0xca, 0x82, 0x3d, 0x4e, 0x76, 0x1a, 0xbc, 
  0x06, 0xfc, 0x8f, 0xbe, 0xec, 0xd6, 0x5f, 0xbe, 0xf8, 0x30, 0xd8, 0xbd, 
  0xbd, 0x6b, 0x5f, 0xbd, 0x2b, 0x6c, 0x90, 0x3d, 0x18, 0xbd, 0x9a, 0x3e, 
  0x83, 0xb4, 0x59, 0x3e, 0x37, 0x75, 0xdf, 0xbd, 0x3f, 0xba, 0xd7, 0xbd, 
  0x6c, 0x61, 0x72, 0x3c, 0x2b, 0x88, 0x2a, 0xbd, 0xcc, 0x51, 0x7d, 0xbd, 
  0xdf, 0x18, 0x4e, 0xbd, 0xf2, 0x43, 0xe9, 0x3e, 0x61, 0x53, 0x59, 0x3d, 
  0xa6, 0x0a, 0x0d, 0x3e, 0xf1, 0xbf, 0xfd, 0x3d, 0x0a, 0xb3, 0xad, 0xbe, 
  0x16, 0xd8, 0x33, 0xbf, 0x66, 0x28, 0x36, 0xbe, 0x65, 0x39, 0xae, 0xbe, 
  0x4a, 0x5c, 0x4a, 0x3d, 0x97, 0x2f, 0xaf, 0xbe, 0x94, 0x18, 0x6f, 0x3e, 
  0xb8, 0xe1, 0xbb, 0xbd, 0x94, 0xfa, 0x52, 0x3d, 0xd7, 0xcc, 0x61, 0xbd, 
  0x03, 0x71, 0x5e, 0x3d, 0xdd, 0xbf, 0x80, 0x3e, 0x1b, 0x40, 0xf4, 0xbe, 
  0x0d, 0xc1, 0x9a, 0x3d, 0xe1, 0xb8, 0x84, 0x3e, 0x5b, 0x37, 0xec, 0xbd, 
  0x9a, 0x65, 0x85, 0xbd, 0x79, 0x2d, 0xda, 0xbd, 0xc7, 0x38, 0x37, 0x3f, 
  0x42, 0xa5, 0x3f, 0x3e, 0x4d, 0x85, 0x44, 0x3d, 0x6c, 0x0a, 0x3d, 0xbe, 
  0x76, 0x91, 0x14, 0xbf, 0xe9, 0x23, 0xf2, 0x3e, 0x9f, 0x9b, 0xef, 0xbe, 
  0xc3, 0xb4, 0x1b, 0x3e, 0xd0, 0xd3, 0x9b, 0xbc, 0x13, 0x27, 0x27, 0x3e, 
  0xda, 0x35, 0xba, 0xbe, 0x03, 0x11, 0x68, 0xbd, 0xcd, 0xaa, 0x3c, 0xbe, 
  0xbb, 0xe2, 0x83, 0xbd, 0x11, 0x55, 0x0b, 0x3e, 0xf8, 0xfa, 0xab, 0xbe, 
  0x57, 0x08, 0x51, 0x3d, 0x82, 0xda, 0x58, 0x3e, 0x99, 0x2c, 0x6a, 0x3e, 
  0xcd, 0x9f, 0xa1, 0xbe, 0x5e, 0xa2, 0x71, 0xbe, 0x34, 0xa5, 0xb1, 0x3d, 
  0x47, 0xba, 0x40, 0x3f, 0x77, 0x83, 0x6a, 0xbc, 0x53, 0x08, 0xba, 0x3d, 
  0x9b, 0x32, 0x5c, 0x3f, 0xad, 0x13, 0xfe, 0x3e, 0xee, 0xed, 0xc6, 0xbd, 
  0x82, 0x7a, 0x18, 0x3e, 0x05, 0x8e, 0x43, 0x3e, 0xe8, 0x26, 0xd7, 0xbd, 
  0x82, 0x82, 0x3a, 0x3e, 0x57, 0x60, 0x42, 0xbe, 0x9e, 0x9c, 0x42, 0x3e, 
  0xa1, 0x0a, 0x43, 0x3e, 0x6f, 0x43, 0x42, 0xbe, 0xdc, 0xe8, 0x81, 0x3c, 
  0xb5, 0x9a, 0x42, 0xbd, 0x9e, 0x01, 0x4d, 0xbd, 0x5d, 0xa8, 0xfa, 0xbd, 
  0xf8, 0x03, 0xf1, 0xbd, 0x85, 0x6c, 0xaf, 0xbd, 0x42, 0x59, 0x27, 0xbe, 
  0x6e, 0x82, 0x29, 0xbe, 0xa3, 0x86, 0x15, 0x3f, 0xbd, 0x85, 0x61, 0x3e, 
  0xf7, 0x43, 0xb3, 0x3c, 0x3d, 0x91, 0x04, 0xbf, 0x93, 0x57, 0xda, 0x3d, 
  0xcc, 0x83, 0x1c, 0x3f, 0x6e, 0x3c, 0xa9, 0x3e, 0xe3, 0xf2, 0x0f, 0x3e, 
  0xe0, 0x4b, 0xdb, 0x3c, 0xdf, 0xcf, 0x57, 0x3d, 0x90, 0x62, 0xfe, 0x3b, 
  0x6a, 0x71, 0xdb, 0x3c, 0x4c, 0x1b, 0xc7, 0x3b, 0xd9, 0xbd, 0x48, 0xbe, 
  0x5d, 0x5f, 0x57, 0x3c, 0xf3, 0xa2, 0x16, 0xbe, 0x88, 0xe4, 0xa5, 0xbd, 
  0x69, 0x2b, 0x8f, 0xbd, 0x93, 0x27, 0x03, 0xbe, 0xfd, 0xe0, 0x0b, 0xbf, 
  0x4d, 0x31, 0x18, 0x3f, 0x10, 0xb7, 0x64, 0x3e, 0x24, 0xbe, 0x16, 0x3f, 
  0x82, 0xa5, 0x83, 0x3e, 0x13, 0xa8, 0xca, 0x3c, 0x1a, 0xd5, 0xdb, 0x3e, 
  0xa4, 0x31, 0x70, 0x3f, 0xd1, 0xe3, 0x19, 0xbe, 0x25, 0xc5, 0x9c, 0x3d, 
  0xa3, 0x20, 0xbc, 0x3d, 0xe7, 0xb6, 0xfa, 0xbc, 0x09, 0x3c, 0x3e, 0x3d, 
  0x9c, 0x12, 0x85, 0x3d, 0x19, 0xfc, 0x9c, 0xbd, 0xd0, 0xdc, 0x84, 0xbc, 
  0xae, 0x47, 0x9e, 0x3e, 0xb4, 0xde, 0x23, 0x3e, 0xa8, 0x82, 0x97, 0xbd, 
  0x8b, 0xa2, 0x1e, 0x3e, 0x60, 0x80, 0xae, 0x3c, 0x90, 0xde, 0x21, 0x3e, 
  0xfc, 0x9a, 0xa6, 0x3e, 0x95, 0xbb, 0xb9, 0xbd, 0x2a, 0xea, 0x06, 0x3e, 
  0xd5, 0x65, 0xca, 0x3e, 0xa0, 0xb6, 0x33, 0xbb, 0x70, 0xf6, 0x92, 0xbe, 
  0x86, 0x32, 0x25, 0x3e, 0x4a, 0xb6, 0x20, 0xbf, 0x8e, 0x2d, 0x22, 0xbf, 
  0x10, 0xe9, 0xe1, 0xbe, 0xfb, 0x78, 0xa1, 0xbd, 0x5e, 0xcf, 0x17, 0xbd, 
  0xc6, 0x49, 0xa3, 0x3a, 0x39, 0xbf, 0xb9, 0xbd, 0xf9, 0xbf, 0xa7, 0x3c, 
  0x66, 0x18, 0x19, 0x3e, 0xe8, 0xf4, 0x00, 0xbd, 0x4f, 0x9c, 0x9c, 0x3d, 
  0x52, 0x0c, 0x8b, 0x3e, 0x73, 0x11, 0xe7, 0x3e, 0x04, 0xe7, 0x0e, 0x3e, 
  0x3c, 0x8a, 0x5f, 0x3e, 0xe6, 0x6a, 0xa7, 0xbd, 0xd7, 0xd1, 0xc1, 0xbd, 
  0xd6, 0xd9, 0x09, 0xbe, 0xe8, 0x88, 0xce, 0xbb, 0xb7, 0xaf, 0x8b, 0xbe, 
  0x27, 0x45, 0x95, 0xbe, 0x57, 0x92, 0x4d, 0xbf, 0xa8, 0x13, 0x3f, 0x3e, 
  0x30, 0x78, 0x56, 0xbf, 0x8a, 0x4b, 0x43, 0xbd, 0xb2, 0xe4, 0xe8, 0x3d, 
  0x84, 0x63, 0xcc, 0xbc, 0x8c, 0xd9, 0x3b, 0xbe, 0x55, 0xdc, 0x17, 0x3e, 
  0x03, 0x87, 0x26, 0xbe, 0x1f, 0x23, 0x54, 0x3e, 0x4c, 0xa7, 0x45, 0xbd, 
  0x03, 0xca, 0x9e, 0x3e, 0x54, 0xcd, 0x68, 0xbe, 0xac, 0xe7, 0xe9, 0x3d, 
  0xc9, 0xb2, 0x09, 0xbe, 0xbf, 0x76, 0x9d, 0x3e, 0xb6, 0x55, 0x7e, 0x3e, 
  0x50, 0x13, 0x17, 0xbe, 0xac, 0xb2, 0x16, 0x3d, 0x65, 0xfc, 0x89, 0x3e, 
  0x25, 0x83, 0x9d, 0x3d, 0xfa, 0x64, 0xf2, 0x3b, 0x5c, 0x6a, 0x08, 0xbf, 
  0x34, 0x26, 0xcb, 0xbd, 0xca, 0x84, 0x06, 0x3f, 0x80, 0x60, 0x16, 0xbf, 
  0xf8, 0xf8, 0x58, 0x3d, 0x3a, 0x67, 0x22, 0xbd, 0x71, 0xff, 0x19, 0x3e, 
  0x5e, 0x46, 0x7e, 0x3d, 0xde, 0x40, 0x9e, 0x3d, 0xa4, 0x1b, 0x2c, 0xbd, 
  0x52, 0xae, 0xec, 0x3c, 0x51, 0xf6, 0xff, 0x3d, 0xb7, 0xf4, 0x4a, 0xbe, 
  0x6b, 0xb1, 0x77, 0xbe, 0x2d, 0x5f, 0x26, 0x3c, 0x73, 0x9c, 0x50, 0x3e, 
  0x46, 0x8c, 0x45, 0x3e, 0xf3, 0x04, 0x9d, 0xbe, 0xfc, 0x07, 0x6a, 0xbd, 
  0xbc, 0x13, 0x9d, 0x3e, 0x6b, 0x25, 0x88, 0xbc, 0xd5, 0xf9, 0x6a, 0x3d, 
  0x34, 0x7a, 0xc8, 0x3e, 0x45, 0x78, 0x30, 0xbf, 0x1f, 0x11, 0xb7, 0x3e, 
  0xae, 0xd9, 0x4d, 0xbf, 0xf8, 0x48, 0xdf, 0x3d, 0xb4, 0x96, 0xc4, 0xbd, 
  0xc8, 0x11, 0xcd, 0xbd, 0x01, 0xae, 0x6b, 0x3d, 0x0d, 0xc5, 0xd7, 0x3d, 
  0x35, 0x8a, 0xdf, 0xbd, 0x69, 0x03, 0xae, 0x3d, 0x55, 0x97, 0x3b, 0xbd, 
  0xa5, 0x98, 0x85, 0xbe, 0xb2, 0x39, 0x8a, 0xbe, 0x70, 0x33, 0x46, 0xbd, 
  0x6f, 0x2c, 0x7f, 0x3e, 0x4e, 0xda, 0xd3, 0xbe, 0x6c, 0xc2, 0x33, 0x3e, 
  0x4b, 0x13, 0x8d, 0x3d, 0xb8, 0x1c, 0xdb, 0x3e, 0x6c, 0x8c, 0x91, 0x3e, 
  0xde, 0x9c, 0x45, 0x3e, 0x5e, 0xdf, 0xa2, 0xbd, 0x52, 0x4e, 0x4c, 0x3f, 
  0xee, 0xbb, 0xb8, 0x3e, 0xd7, 0x91, 0x3e, 0xbe, 0x75, 0xcc, 0x39, 0x3e, 
  0xd5, 0x7f, 0xf4, 0x3c, 0x8a, 0x5f, 0x59, 0x3d, 0xbf, 0x5d, 0x1c, 0x3e, 
  0xff, 0x69, 0xa6, 0xbd, 0x37, 0x6d, 0x24, 0xbe, 0x95, 0x70, 0xb6, 0xbd, 
  0x5e, 0x39, 0xad, 0xbd, 0x3d, 0xf2, 0x82, 0xbd, 0x28, 0x47, 0xc8, 0x3e, 
  0xd1, 0x65, 0x95, 0x3e, 0xb5, 0x93, 0x85, 0xbe, 0x27, 0x1c, 0xf3, 0x3e, 
  0x5b, 0xe8, 0x13, 0xbd, 0xf5, 0x59, 0x60, 0xbe, 0x12, 0x7c, 0x14, 0x3f, 
  0xfc, 0x6f, 0xd9, 0xbd, 0xe0, 0xda, 0x97, 0xbd, 0xd7, 0x76, 0xb7, 0x3d, 
  0xdb, 0xaa, 0xc2, 0xbe, 0x4b, 0x36, 0x98, 0xbd, 0x74, 0xbd, 0x01, 0xbf, 
  0x91, 0x35, 0x86, 0x3d, 0xa1, 0x47, 0x41, 0x3d, 0x0d, 0x4d, 0xde, 0xbd, 
  0xbb, 0x13, 0xcf, 0xbd, 0x49, 0xf5, 0x94, 0xbd, 0x2c, 0xfa, 0xad, 0xbc, 
  0x27, 0x60, 0x0f, 0xbe, 0x7f, 0x2c, 0x3c, 0xbd, 0x1d, 0x36, 0xa8, 0x3d, 
  0xc9, 0x01, 0xf1, 0x3d, 0xc5, 0x2e, 0x8b, 0xbe, 0x9c, 0xaa, 0x4b, 0x3e, 
  0x70, 0x6b, 0xde, 0xbe, 0x0c, 0x33, 0x8d, 0x3d, 0x05, 0x7d, 0xd3, 0xbd, 
  0x98, 0xc3, 0x0b, 0x3f, 0x68, 0x20, 0x51, 0x3d, 0x1e, 0x45, 0x41, 0xbd, 
  0x1d, 0x98, 0x06, 0x3f, 0x4d, 0x9a, 0x0d, 0xbe, 0x35, 0x03, 0x06, 0xbe, 
  0x5e, 0x0c, 0x34, 0xbf, 0x7b, 0xf0, 0xd1, 0xbe, 0x79, 0x00, 0x9f, 0x3e, 
  0x9a, 0xa0, 0x49, 0xbb, 0x55, 0x1a, 0x97, 0xbd, 0x8d, 0xe3, 0xab, 0xbe, 
  0x24, 0x85, 0x0f, 0x3e, 0xf1, 0x2c, 0x05, 0xbe, 0x5d, 0xc1, 0x2a, 0xbe, 
  0x5c, 0x9b, 0x8c, 0x3e, 0x98, 0x6b, 0x32, 0x3e, 0xc9, 0x5d, 0x88, 0xbe, 
  0xd4, 0x2f, 0xa8, 0xbd, 0x54, 0x83, 0x7a, 0x3e, 0x75, 0xa1, 0x3d, 0xbd, 
  0xe2, 0x07, 0x4f, 0x3c, 0x96, 0x63, 0x0b, 0x3e, 0xaf, 0x8b, 0xa9, 0xbe, 
  0x43, 0xe5, 0x69, 0xbe, 0xba, 0x0e, 0x11, 0xbf, 0x17, 0x9b, 0xed, 0xbe, 
  0xe2, 0x50, 0x1e, 0xbf, 0x59, 0xc3, 0x9e, 0xbd, 0xdf, 0xb8, 0x3f, 0xbe, 
  0x22, 0x48, 0x6c, 0xbe, 0x46, 0xe5, 0x21, 0x3e, 0xb4, 0x6f, 0x89, 0xbd, 
  0xed, 0xd7, 0x0b, 0x3e, 0x8b, 0x0a, 0x20, 0x3e, 0x5e, 0x34, 0x51, 0x3e, 
  0x68, 0x99, 0x05, 0x40, 0x60, 0x93, 0xc7, 0xbd, 0x36, 0x52, 0x72, 0xbe, 
  0x89, 0xa1, 0xee, 0x3b, 0x7b, 0x2c, 0xc9, 0xbd, 0xc4, 0xe9, 0x00, 0xbd, 
  0xc0, 0xe7, 0xbf, 0xbe, 0xb7, 0xb9, 0x92, 0x3d, 0x8b, 0x89, 0x56, 0xbf, 
  0xce, 0xdd, 0xe0, 0x3d, 0x91, 0x6d, 0x67, 0x3e, 0xb5, 0x99, 0xff, 0xbc, 
  0x18, 0xea, 0xac, 0x3e, 0x0e, 0x27, 0x97, 0xbd, 0x58, 0x1f, 0x4e, 0x3e, 
  0x48, 0x59, 0x0f, 0xbc, 0xca, 0x2b, 0x9c, 0x3d, 0x0b, 0xd2, 0x3a, 0xbe, 
  0x14, 0xda, 0x33, 0x3e, 0x50, 0x93, 0x40, 0x3e, 0x82, 0x93, 0x55, 0xbe, 
  0x19, 0x53, 0xfd, 0x3e, 0xca, 0xa0, 0x76, 0xbe, 0xa9, 0xd1, 0x8a, 0x3e, 
  0x65, 0x61, 0x1b, 0x3f, 0xf0, 0x9c, 0xd5, 0xbb, 0x04, 0x88, 0x0c, 0xbe, 
  0x05, 0xcc, 0xb6, 0x3e, 0xa7, 0x49, 0x8a, 0xbe, 0xca, 0x5f, 0xa4, 0x3d, 
  0x48, 0x9e, 0xb3, 0x3e, 0xf6, 0x9a, 0xb0, 0x3d, 0xbe, 0x42, 0xab, 0xbe, 
  0x17, 0x1c, 0x7a, 0xbe, 0x3a, 0x22, 0x1a, 0xbe, 0x8e, 0x52, 0x05, 0x3e, 
  0xc5, 0xec, 0x04, 0xbe, 0x7c, 0x10, 0x0f, 0x3d, 0x76, 0xd9, 0xa4, 0x3d, 
  0x74, 0xba, 0x70, 0xbc, 0xdf, 0x08, 0xa3, 0xbc, 0xe0, 0xed, 0x64, 0xbd, 
  0x19, 0x55, 0xe5, 0x3d, 0xcb, 0x63, 0xb1, 0x3e, 0xcf, 0x1b, 0xa4, 0x3c, 
  0x2f, 0xca, 0x88, 0xbe, 0xfd, 0x2d, 0x91, 0xbd, 0xf1, 0xcc, 0x28, 0x3d, 
  0x95, 0xd5, 0x9b, 0xbb, 0x64, 0x94, 0x39, 0xbe, 0x7b, 0x84, 0x90, 0x3d, 
  0x99, 0x5e, 0x5c, 0x3e, 0x64, 0xda, 0xfc, 0x3e, 0x2e, 0xbd, 0x08, 0x3e, 
  0xcf, 0x2f, 0xa8, 0xbd, 0x7e, 0x74, 0xfa, 0xbd, 0xe3, 0x49, 0x25, 0xbf, 
  0xe6, 0x4e, 0x8a, 0x3e, 0x69, 0x32, 0x94, 0xbe, 0x44, 0xfb, 0x05, 0x3e, 
  0x64, 0x46, 0xbd, 0xb9, 0xe4, 0x76, 0x84, 0xbe, 0x74, 0xf5, 0x4a, 0xbd, 
  0x14, 0x2e, 0x2b, 0xbd, 0x7b, 0xbe, 0xae, 0x3e, 0x22, 0x99, 0x2f, 0xbc, 
  0xcd, 0x7a, 0x37, 0xbd, 0xb6, 0x28, 0x19, 0x3e, 0xfb, 0x0c, 0xa0, 0x3d, 
  0x6d, 0x17, 0xc7, 0xbc, 0xd3, 0x77, 0x81, 0x3a, 0x76, 0x92, 0x5e, 0x3e, 
  0xb6, 0x88, 0xd3, 0x3d, 0x0c, 0x10, 0xd1, 0xbd, 0x64, 0xa3, 0x2c, 0x3e, 
  0x45, 0x9d, 0x98, 0xbd, 0x3a, 0x51, 0x45, 0xbe, 0x6e, 0x03, 0x15, 0x3f, 
  0x75, 0xb0, 0x06, 0xbe, 0x75, 0x26, 0x27, 0x3f, 0xdf, 0x03, 0xb6, 0xbe, 
  0x27, 0x33, 0x1f, 0xbd, 0x49, 0xb0, 0xb8, 0x3a, 0x21, 0x06, 0x4b, 0x3d, 
  0x1e, 0x42, 0x82, 0xbd, 0xfb, 0xfc, 0xcf, 0xbc, 0xd1, 0x44, 0xe4, 0x3c, 
  0x64, 0xa7, 0xa4, 0xbc, 0x7b, 0x07, 0x8e, 0x37, 0x1b, 0xdf, 0x53, 0xbd, 
  0x07, 0xa2, 0xd6, 0x3c, 0xc2, 0x85, 0x19, 0xbd, 0x9d, 0x27, 0x78, 0x3e, 
  0xde, 0x7e, 0x09, 0xbd, 0xee, 0xe2, 0x8c, 0x3c, 0x6a, 0xbf, 0xff, 0x3c, 
  0xf2, 0xe6, 0xda, 0x3e, 0xf3, 0x05, 0x35, 0x3d, 0x90, 0xd0, 0xfa, 0xbd, 
  0x0b, 0xb3, 0x85, 0xbe, 0xf0, 0x54, 0x00, 0x3f, 0xe4, 0x26, 0xea, 0xbe, 
  0x7a, 0xf5, 0x32, 0x3f, 0x64, 0x17, 0xa9, 0xbd, 0xbc, 0xfc, 0xcc, 0x3d, 
  0x48, 0x6a, 0x96, 0x3d, 0x58, 0xbe, 0xac, 0x3e, 0x67, 0x07, 0x72, 0xbd, 
  0x25, 0x05, 0xe4, 0xbd, 0x6a, 0x82, 0x35, 0xbd, 0xd4, 0x25, 0x96, 0xbd, 
  0x44, 0x48, 0x78, 0xbe, 0x6e, 0x26, 0x46, 0x3e, 0x89, 0x66, 0x37, 0x3e, 
  0x11, 0xc2, 0x2e, 0x3e, 0x08, 0x14, 0xa1, 0xbe, 0x77, 0xe4, 0x5a, 0xbd, 
  0xcd, 0x6d, 0x8b, 0x3e, 0xc2, 0x3d, 0xaa, 0x3e, 0x93, 0xfc, 0x8d, 0x3c, 
  0x9e, 0x29, 0xac, 0xbe, 0x2e, 0x8b, 0x2c, 0xbf, 0x27, 0x91, 0xad, 0xbe, 
  0xbb, 0x6f, 0x8b, 0xbe, 0x05, 0x5f, 0x2a, 0xbf, 0x24, 0x97, 0x59, 0x3e, 
  0x04, 0x22, 0x10, 0xbd, 0x41, 0x5a, 0xd1, 0x3c, 0x78, 0x4e, 0x7c, 0xbe, 
  0x06, 0xea, 0x25, 0x3e, 0xb9, 0xd2, 0xe7, 0xbd, 0x81, 0xed, 0x22, 0x3e, 
  0x46, 0x08, 0x11, 0xbe, 0x3d, 0x91, 0x15, 0x3d, 0x0d, 0xff, 0x2f, 0xbe, 
  0xcd, 0x49, 0x59, 0x3e, 0x8f, 0xef, 0x25, 0xbd, 0x4e, 0xef, 0x85, 0x3c, 
  0xf8, 0x79, 0xa4, 0xbc, 0x78, 0xb5, 0x5d, 0x3e, 0x3a, 0x6b, 0xc8, 0x3d, 
  0xd0, 0x08, 0x0d, 0xbd, 0x0f, 0x12, 0x6a, 0xbe, 0xb1, 0xf2, 0x85, 0xbe, 
  0x30, 0xdc, 0x4c, 0xbf, 0xd5, 0x0a, 0x95, 0x3e, 0x33, 0x2e, 0xfb, 0x3e, 
  0xfb, 0xc1, 0x02, 0x3f, 0xc9, 0x55, 0x6c, 0x3d, 0x18, 0x1e, 0xcf, 0xbe, 
  0x15, 0xc0, 0x0c, 0x3c, 0xda, 0x2e, 0xc0, 0xbe, 0xc9, 0x88, 0x5a, 0xbe, 
  0x73, 0x47, 0x9a, 0x3e, 0xe8, 0x25, 0x35, 0x3e, 0xa1, 0x22, 0x77, 0x3e, 
  0xeb, 0x1f, 0xd3, 0xbe, 0x5e, 0x01, 0xb9, 0xbe, 0x84, 0xf3, 0x19, 0xbe, 
  0x34, 0xa9, 0x8e, 0xbe, 0xe6, 0x6e, 0xad, 0xbe, 0x7d, 0xdb, 0x34, 0x3e, 
  0x3e, 0x8b, 0xcb, 0xbe, 0x86, 0x23, 0x16, 0xbe, 0xcc, 0x21, 0x75, 0xbd, 
  0x8f, 0x46, 0x58, 0xbd, 0x42, 0x04, 0x15, 0xbe, 0x88, 0xc7, 0xd4, 0x3d, 
  0x26, 0xee, 0x1a, 0xbe, 0x4d, 0x63, 0x29, 0xbe, 0x84, 0x83, 0x93, 0x3d, 
  0xc8, 0x12, 0xe3, 0xbc, 0x8d, 0x9e, 0x1b, 0x3e, 0x8e, 0x4f, 0x72, 0xbd, 
  0x3a, 0x3e, 0x65, 0xbe, 0x53, 0x19, 0x34, 0xbe, 0x5a, 0xec, 0xfb, 0xbc, 
  0xe4, 0x6e, 0x5f, 0x3e, 0x6e, 0xd1, 0x1e, 0x3e, 0x05, 0xac, 0xf0, 0x3d, 
  0x7a, 0xa0, 0xf0, 0x3b, 0x69, 0xed, 0xcb, 0xbe, 0xca, 0x7b, 0x36, 0xbd, 
  0xd0, 0x1b, 0xcc, 0x3e, 0x62, 0x1c, 0x61, 0x3f, 0x94, 0x66, 0xa3, 0xbd, 
  0xf1, 0x74, 0x7b, 0xbe, 0xd3, 0x36, 0x89, 0x3e, 0xd4, 0xe8, 0x91, 0xbe, 
  0x8c, 0x9c, 0x5a, 0xbf, 0xd0, 0x96, 0x22, 0x3f, 0x01, 0x37, 0x9b, 0x3b, 
  0x0f, 0xf8, 0x79, 0x3d, 0x3a, 0x36, 0x02, 0x3e, 0x50, 0x3e, 0x4a, 0xbe, 
  0x88, 0xed, 0xba, 0xbb, 0x21, 0xf1, 0x93, 0x3b, 0x1b, 0x45, 0x29, 0xbd, 
  0x04, 0xcf, 0x47, 0xbd, 0x86, 0xe7, 0x15, 0x3c, 0x88, 0x70, 0xad, 0xbe, 
  0xee, 0xc6, 0x8a, 0xbd, 0x46, 0x8a, 0xb0, 0xbe, 0x02, 0x24, 0x1d, 0x3e, 
  0xdc, 0x47, 0x10, 0xbd, 0x47, 0xb2, 0x6f, 0x3e, 0xac, 0x3a, 0x20, 0x3f, 
  0x92, 0x68, 0xef, 0xba, 0xef, 0xdc, 0x15, 0xbd, 0x7a, 0xbe, 0x11, 0x3f, 
  0xfa, 0x47, 0xab, 0xbe, 0x36, 0x02, 0x26, 0x3f, 0x79, 0xe5, 0xfc, 0x3e, 
  0xae, 0x69, 0xc3, 0xba, 0xb0, 0x63, 0xef, 0x3e, 0xc7, 0x7d, 0xed, 0x3d, 
  0xf7, 0xec, 0xe9, 0xbd, 0x97, 0x96, 0x56, 0x3e, 0x29, 0x83, 0x4c, 0x3d, 
  0x53, 0x3a, 0x3e, 0x3e, 0x54, 0xcf, 0x70, 0x3d, 0x07, 0x28, 0x84, 0xbe, 
  0x7a, 0xc8, 0x3d, 0x3d, 0x2b, 0x60, 0xb3, 0xbe, 0xf2, 0x39, 0xbf, 0x3d, 
  0xa2, 0xc9, 0x24, 0xbe, 0xf9, 0x51, 0xec, 0xbd, 0xe9, 0x41, 0x1d, 0xbe, 
  0x62, 0xe6, 0x2b, 0xbf, 0x07, 0x24, 0xc8, 0x3e, 0xee, 0x13, 0xaf, 0x3e, 
  0xa6, 0xea, 0x8d, 0xbd, 0xb7, 0xf2, 0x46, 0x3e, 0x87, 0xc7, 0xb8, 0x3e, 
  0xb2, 0x9b, 0x17, 0xbc, 0x66, 0x58, 0xc5, 0xbd, 0x71, 0x81, 0xb0, 0xbd, 
  0x82, 0xaf, 0x59, 0x3e, 0x0e, 0x22, 0x91, 0xbe, 0x7d, 0x2e, 0x62, 0x3e, 
  0xf4, 0x53, 0x99, 0x3e, 0x9f, 0x9b, 0x9f, 0x3d, 0x36, 0xd1, 0xb4, 0xbd, 
  0xf0, 0x4d, 0x95, 0x3d, 0x28, 0xe7, 0x42, 0x3e, 0x74, 0xdd, 0x09, 0xbe, 
  0x32, 0x94, 0x0d, 0xbe, 0x80, 0x55, 0x8c, 0x3e, 0x27, 0xa9, 0x32, 0xbe, 
  0x52, 0x9b, 0xb9, 0xbe, 0x5e, 0xc4, 0xab, 0x3d, 0x4b, 0xef, 0x20, 0xbe, 
  0x23, 0xfd, 0x88, 0xbe, 0x31, 0x0f, 0x85, 0x3e, 0x02, 0xb2, 0xb6, 0x3f, 
  0x5c, 0xf2, 0xa6, 0xba, 0x8b, 0x33, 0xf6, 0x3e, 0x0a, 0xf7, 0xff, 0xff, 
  0x04, 0x00, 0x00, 0x00, 0x80, 0x00, 0x00, 0x00, 0x23, 0x76, 0x05, 0xbf, 
  0x90, 0xd1, 0x02, 0x3f, 0xe4, 0x13, 0xa7, 0x3f, 0x98, 0x19, 0xfb, 0xbe, 
  0xc4, 0x1e, 0x53, 0x3f, 0x28, 0x75, 0x9c, 0x3f, 0x08, 0x81, 0x2d, 0x3f, 
  0xc0, 0x15, 0x5b, 0x3f, 0x00, 0xf3, 0x54, 0x3f, 0x6c, 0x6e, 0x64, 0x3f, 
  0xbd, 0x48, 0x91, 0x3f, 0xc7, 0x88, 0x55, 0x3f, 0xb2, 0x11, 0x4d, 0x3f, 
  0xbe, 0x20, 0xb8, 0x3e, 0xec, 0x67, 0x5a, 0x3f, 0x13, 0xb0, 0x03, 0x3f, 
  0x0c, 0x45, 0x40, 0x3f, 0x39, 0xe2, 0x2a, 0x3f, 0xae, 0x2f, 0x86, 0x3f, 
  0xa7, 0x5e, 0x02, 0x3f, 0x76, 0x89, 0x9f, 0xbe, 0x3d, 0x70, 0xcb, 0x3e, 
  0x96, 0x89, 0x4e, 0x3f, 0x9a, 0xc3, 0x24, 0x3f, 0xcf, 0x0a, 0x4a, 0x3f, 
  0x74, 0xc5, 0x0d, 0x3f, 0x1e, 0x2e, 0x4e, 0x3f, 0xc4, 0x42, 0x59, 0xbe, 
  0x63, 0xb4, 0x93, 0x3f, 0x80, 0xf5, 0x35, 0x3f, 0xdc, 0x53, 0x28, 0xbe, 
  0xb6, 0x28, 0x63, 0x3e, 0x96, 0xf7, 0xff, 0xff, 0x04, 0x00, 0x00, 0x00, 
  0x40, 0x00, 0x00, 0x00, 0xfc, 0x21, 0x53, 0x3f, 0x98, 0xfc, 0x23, 0x3b, 
  0x37, 0xc2, 0x3a, 0xbe, 0x09, 0xfa, 0x0d, 0xbf, 0xe9, 0x0f, 0x15, 0x3d, 
  0xb5, 0xf4, 0xb0, 0xbe, 0x46, 0x91, 0x36, 0x3f, 0x98, 0xb6, 0x19, 0x3f, 
  0x07, 0xf1, 0x3d, 0xbe, 0x9b, 0xb6, 0x76, 0xbd, 0xff, 0x61, 0x28, 0x3f, 
  0xb1, 0xfc, 0x1b, 0x3f, 0x9b, 0x9f, 0x27, 0x3f, 0xdf, 0x91, 0x2d, 0x3f, 
  0x6a, 0x19, 0x14, 0xbf, 0xbe, 0x14, 0x9b, 0xbe, 0xe2, 0xf7, 0xff, 0xff, 
  0x04, 0x00, 0x00, 0x00, 0x04, 0x00, 0x00, 0x00, 0x69, 0xa1, 0x19, 0x3f, 
  0xf2, 0xf7, 0xff, 0xff, 0x04, 0x00, 0x00, 0x00, 0x00, 0x08, 0x00, 0x00, 
  0x10, 0xbd, 0x82, 0x3e, 0x7c, 0xd7, 0x00, 0x3e, 0xc6, 0x63, 0x29, 0x3f, 
  0xac, 0x62, 0xec, 0xbe, 0xa9, 0x5d, 0x9d, 0x3b, 0xa1, 0x31, 0xc6, 0x3e, 
  0xe7, 0xac, 0x42, 0xbe, 0x1c, 0x8d, 0xb4, 0x3e, 0x93, 0x27, 0x46, 0x3e, 
  0x88, 0xa3, 0x75, 0x3d, 0xb8, 0x7a, 0xd8, 0x3e, 0x11, 0x0a, 0x31, 0x3f, 
  0x1c, 0xf7, 0x34, 0x3d, 0x9a, 0x36, 0x5e, 0x3e, 0x06, 0x2a, 0xa0, 0x3e, 
  0x4f, 0x7b, 0xa4, 0xbd, 0x13, 0x50, 0x9a, 0x3e, 0x07, 0x16, 0x02, 0xbd, 
  0xa9, 0xca, 0x0d, 0x3f, 0xcc, 0x47, 0x39, 0xbe, 0xc0, 0x64, 0x96, 0xbe, 
  0x9d, 0x8a, 0x8b, 0xbe, 0x6d, 0x17, 0x25, 0x3d, 0xa3, 0x86, 0x02, 0xbd, 
  0x03, 0x9b, 0x83, 0x3e, 0x09, 0x01, 0x62, 0x3e, 0x62, 0xb6, 0xd8, 0x3e, 
  0x67, 0x08, 0x39, 0x3d, 0xfb, 0x58, 0x4b, 0x3f, 0x96, 0xe1, 0x0d, 0x3f, 
  0x27, 0x71, 0x8e, 0xbe, 0x11, 0xef, 0x65, 0xbe, 0x7b, 0x3f, 0x79, 0xbe, 
  0xfb, 0x11, 0x11, 0xbf, 0xc6, 0x7d, 0x2e, 0x3e, 0x6c, 0xbc, 0x98, 0xbd, 
  0x86, 0x5a, 0x73, 0x3d, 0x76, 0x91, 0x10, 0x3f, 0x6e, 0x1a, 0xcd, 0x3e, 
  0xeb, 0x02, 0xd8, 0xbe, 0xd6, 0xe8, 0x2c, 0xbf, 0x8c, 0x7e, 0x33, 0xbe, 
  0xdf, 0x3b, 0x9b, 0xbd, 0x74, 0x72, 0x86, 0xbf, 0x86, 0x15, 0x31, 0xbd, 
  0xb4, 0x31, 0xab, 0x3e, 0xb2, 0xa5, 0x2a, 0xbe, 0x6d, 0x8e, 0x67, 0x3d, 
  0x38, 0x72, 0x0b, 0xbf, 0x6d, 0x09, 0x6e, 0xbe, 0x64, 0x81, 0xb8, 0xbe, 
  0x0c, 0x53, 0x02, 0x3d, 0x34, 0x83, 0xad, 0xbe, 0xec, 0x69, 0x13, 0x3e, 
  0x55, 0xe8, 0x63, 0xbe, 0x59, 0x29, 0x7c, 0x3d, 0x3b, 0xca, 0xbb, 0x3e, 
  0xef, 0x42, 0xb0, 0xbd, 0x59, 0xbd, 0x38, 0x3e, 0xe5, 0x4f, 0xc2, 0xbd, 
  0x6d, 0xfa, 0xf3, 0xbe, 0xcb, 0xf4, 0xee, 0x3c, 0x4f, 0xa9, 0x02, 0x3f, 
  0x95, 0x90, 0x3c, 0x3e, 0x05, 0xf7, 0x91, 0xbe, 0x72, 0x88, 0xd7, 0xbd, 
  0x07, 0x48, 0x58, 0x3d, 0x55, 0x73, 0x82, 0x3e, 0xd6, 0xf1, 0xff, 0xbc, 
  0xfa, 0x17, 0x60, 0x3e, 0xe3, 0x3b, 0xcc, 0x3d, 0x4d, 0x3d, 0x9d, 0xbe, 
  0xe0, 0x5f, 0x8f, 0x3c, 0x79, 0xec, 0xae, 0xbe, 0xdb, 0x84, 0x05, 0xbf, 
  0xa8, 0xa4, 0x16, 0x3f, 0x90, 0xba, 0x9e, 0xbe, 0x77, 0x77, 0x1d, 0xbe, 
  0x3f, 0xf8, 0x8f, 0xbe, 0xdb, 0x36, 0x7c, 0xbe, 0xd4, 0x60, 0x6f, 0xbe, 
  0x25, 0x8f, 0x56, 0xbd, 0xd4, 0xb8, 0x96, 0xbe, 0x1b, 0x91, 0xd9, 0xbd, 
  0x6d, 0x01, 0xb2, 0x3e, 0x31, 0x74, 0xa7, 0xbd, 0x25, 0x8c, 0x1c, 0x3e, 
  0x4b, 0xcc, 0x58, 0x3e, 0x74, 0xcf, 0xeb, 0xba, 0x59, 0x79, 0x92, 0xbd, 
  0xa5, 0xba, 0x46, 0xbe, 0xf8, 0x93, 0xad, 0xbc, 0x8c, 0x81, 0x66, 0x3e, 
  0xee, 0x55, 0xe6, 0x3d, 0xbf, 0x6f, 0x99, 0x3e, 0xa9, 0x59, 0x16, 0xbe, 
  0xb9, 0x0c, 0x9e, 0x3e, 0xd4, 0xd0, 0xaa, 0x3e, 0xe5, 0x97, 0xdf, 0xbe, 
  0x2d, 0xb5, 0x27, 0x3e, 0xc3, 0xad, 0x61, 0xbe, 0xf0, 0x82, 0x63, 0x3e, 
  0x9d, 0x93, 0x59, 0xbe, 0x5a, 0xca, 0x9b, 0xbd, 0xe6, 0x5d, 0xb0, 0x3e, 
  0x82, 0x25, 0x6a, 0xbe, 0x22, 0xb2, 0x01, 0xbe, 0x43, 0x89, 0x38, 0x3e, 
  0xa8, 0x75, 0x23, 0x3e, 0xa0, 0xab, 0x47, 0xbe, 0x5d, 0xde, 0x3b, 0x3e, 
  0xb2, 0x12, 0x93, 0xbe, 0x49, 0xcf, 0x87, 0x3e, 0x6a, 0x4d, 0x6f, 0x3c, 
  0x93, 0x2c, 0x5f, 0xbd, 0x41, 0x9e, 0x4f, 0xbb, 0xe9, 0x87, 0xd5, 0x3e, 
  0xc9, 0xd5, 0x6d, 0xbd, 0xb6, 0x46, 0x81, 0x3e, 0xd4, 0xc0, 0xb2, 0x3e, 
  0xa0, 0x48, 0x60, 0x3e, 0x0e, 0x4a, 0x07, 0xbe, 0xb1, 0x0f, 0xc1, 0xbe, 
  0x21, 0xe8, 0x93, 0xbc, 0x4c, 0xe3, 0xa1, 0x3d, 0x8d, 0xea, 0x14, 0xbe, 
  0x8b, 0x08, 0x9d, 0xbe, 0xe8, 0x54, 0x18, 0xbe, 0x50, 0xaf, 0xa2, 0x3d, 
  0x0b, 0x47, 0x26, 0xbd, 0xfd, 0xa4, 0x96, 0xbd, 0x5f, 0x60, 0x57, 0xbe, 
  0xd8, 0x77, 0xc9, 0x3e, 0x52, 0x49, 0xdc, 0xbd, 0xac, 0x02, 0x73, 0x3e, 
  0xa1, 0x45, 0x83, 0x3e, 0x36, 0xd4, 0xa8, 0xbe, 0x5c, 0x1c, 0x4c, 0xbf, 
  0xbb, 0x2d, 0x2a, 0x3c, 0x70, 0xae, 0x48, 0x3e, 0x70, 0xe3, 0x58, 0x3e, 
  0x6d, 0xe2, 0x26, 0xbd, 0x17, 0x7c, 0xf0, 0xbe, 0xfb, 0xae, 0x62, 0xbe, 
  0x03, 0x80, 0x37, 0x3e, 0x07, 0x2d, 0x48, 0xbe, 0xaf, 0x1d, 0x71, 0x3d, 
  0x9d, 0xa8, 0xae, 0xbe, 0x8b, 0xf4, 0xb2, 0x3e, 0x0c, 0xfa, 0x49, 0x3d, 
  0x55, 0x75, 0x74, 0x3e, 0x3d, 0xeb, 0x82, 0x3e, 0x08, 0x6c, 0x23, 0xbe, 
  0xaa, 0x20, 0x89, 0xbd, 0xf8, 0x48, 0xde, 0x3e, 0x55, 0x05, 0x78, 0x3e, 
  0x5c, 0xec, 0x75, 0x3d, 0x79, 0x3c, 0x15, 0xbe, 0x60, 0x79, 0xf8, 0x3e, 
  0xec, 0x27, 0xa4, 0xbe, 0xc1, 0x88, 0x84, 0xbe, 0x00, 0x9d, 0xe1, 0xbe, 
  0x42, 0x3f, 0xff, 0x3e, 0x5e, 0x9e, 0x53, 0x3e, 0x5e, 0x52, 0xdb, 0x3d, 
  0x43, 0xab, 0x1d, 0xbe, 0x02, 0x9c, 0x84, 0xbe, 0xa5, 0xf6, 0x54, 0xbe, 
  0x95, 0x07, 0x47, 0x3e, 0x52, 0x42, 0xc2, 0xbe, 0xeb, 0xa3, 0xe2, 0xbe, 
  0xf7, 0x44, 0x80, 0x3e, 0x27, 0x6f, 0x6a, 0x3e, 0x68, 0xc4, 0x61, 0x3e, 
  0x80, 0xfd, 0x43, 0xbe, 0x69, 0x1d, 0x8f, 0xbd, 0x28, 0xb4, 0x71, 0x3e, 
  0xf9, 0x95, 0x87, 0x3c, 0xd0, 0x50, 0x7f, 0xbe, 0xde, 0x8d, 0xc2, 0xbe, 
  0x15, 0x21, 0x90, 0xbe, 0xae, 0x1b, 0x62, 0x3d, 0x1f, 0x1b, 0x25, 0x3e, 
  0xa7, 0x8a, 0xb4, 0x3e, 0xa4, 0x5c, 0x92, 0x3e, 0xd7, 0x13, 0xaa, 0x3c, 
  0x24, 0x88, 0xfb, 0x3d, 0x35, 0x4f, 0x1d, 0xbf, 0x1d, 0x27, 0x2c, 0xbe, 
  0x74, 0xec, 0x0b, 0x3e, 0xd3, 0x2e, 0xe1, 0x3e, 0x61, 0xd4, 0x94, 0x3e, 
  0x56, 0xe8, 0xa2, 0xbe, 0xc3, 0x1c, 0xb5, 0xbc, 0xe5, 0x37, 0x2f, 0x3f, 
  0x0e, 0x49, 0xd0, 0xbe, 0x67, 0x69, 0xfe, 0x3e, 0xce, 0xa5, 0x1f, 0x3f, 
  0x5f, 0xfe, 0xc3, 0x3c, 0x98, 0x7a, 0x4d, 0x3d, 0xcd, 0x90, 0x22, 0x3e, 
  0x80, 0x05, 0x13, 0x3f, 0x7f, 0x4d, 0x40, 0x3f, 0xf0, 0x2c, 0xe2, 0x3e, 
  0x82, 0x0e, 0x9f, 0xbc, 0xee, 0xef, 0x09, 0x3c, 0x8a, 0x95, 0x2b, 0x3e, 
  0xcc, 0x93, 0x7a, 0x3e, 0x0d, 0x62, 0xe0, 0x3e, 0x13, 0x16, 0x8b, 0x3d, 
  0x44, 0x9a, 0x85, 0x3e, 0x7e, 0xad, 0x23, 0x3d, 0xd8, 0x46, 0x07, 0xbe, 
  0xda, 0x8e, 0xe2, 0x3d, 0x87, 0x65, 0xd6, 0x3e, 0xcd, 0x3c, 0x89, 0x3d, 
  0x9c, 0x6c, 0xaf, 0x3e, 0x8f, 0xd0, 0x2a, 0x3d, 0xd2, 0x74, 0xa3, 0xbc, 
  0xd9, 0x93, 0xdf, 0xbd, 0x1d, 0x8a, 0x20, 0x3f, 0x2b, 0xb2, 0xc4, 0x3c, 
  0x2c, 0xfa, 0x3b, 0xbe, 0x2e, 0x47, 0x2e, 0x3e, 0x9a, 0x63, 0xdd, 0xbe, 
  0xac, 0xac, 0x99, 0x3e, 0xbc, 0x0b, 0xb4, 0x3e, 0xc2, 0x2d, 0xf4, 0xbe, 
  0xcc, 0xb1, 0xd8, 0x3e, 0x09, 0x3a, 0xc4, 0x3e, 0x73, 0x99, 0x38, 0xbe, 
  0x1c, 0x53, 0xca, 0x3e, 0xa6, 0x21, 0x01, 0x3f, 0x52, 0x4b, 0xa0, 0x3e, 
  0x0c, 0x44, 0x34, 0x3f, 0x45, 0x30, 0x0c, 0x3f, 0x3f, 0xe8, 0xa9, 0x3e, 
  0xfa, 0x97, 0x7c, 0xbd, 0xf9, 0xa3, 0x16, 0x3d, 0xfd, 0xab, 0x54, 0x3e, 
  0xef, 0x35, 0xc3, 0x3e, 0x72, 0x64, 0x8b, 0x3d, 0x25, 0x8a, 0x9e, 0x3e, 
  0xfe, 0x84, 0x8b, 0x3e, 0x0a, 0xf8, 0xbe, 0xbe, 0x87, 0x26, 0xa5, 0x3e, 
  0xc5, 0xd6, 0x4a, 0x3e, 0x34, 0x4b, 0x9f, 0x3e, 0x85, 0xe8, 0x66, 0x3e, 
  0xe1, 0xf6, 0xb2, 0x3e, 0xf5, 0xb9, 0x9a, 0x3d, 0x88, 0xc0, 0x75, 0xbe, 
  0x05, 0xe7, 0x73, 0x3e, 0x48, 0xb9, 0xb4, 0x3e, 0xfd, 0xb3, 0xc2, 0xbe, 
  0x62, 0xae, 0x18, 0x3e, 0xed, 0xc3, 0xe3, 0x3d, 0x7f, 0x1a, 0x75, 0xbf, 
  0x99, 0xad, 0x4a, 0x3e, 0xce, 0x85, 0xc9, 0xbf, 0x76, 0x42, 0xf5, 0x3d, 
  0xde, 0x17, 0x1d, 0x3d, 0xbf, 0x59, 0x25, 0x3b, 0x6a, 0x36, 0x3c, 0xbe, 
  0x4c, 0x2a, 0xb2, 0x3e, 0xf3, 0x6e, 0x42, 0xbe, 0xab, 0x7b, 0x76, 0xbe, 
  0x68, 0x84, 0x15, 0xbe, 0x38, 0x82, 0x25, 0x3e, 0x45, 0xa4, 0xac, 0x3e, 
  0x17, 0xbb, 0x90, 0x3d, 0xe6, 0xe2, 0x1e, 0xbe, 0xde, 0x1b, 0x38, 0x3e, 
  0x16, 0x1b, 0x7a, 0x3d, 0x2b, 0x96, 0xfa, 0x3d, 0xaf, 0x4d, 0x54, 0xbd, 
  0xd5, 0xb6, 0x85, 0xbd, 0xb6, 0x3a, 0x7e, 0xbe, 0x19, 0x0a, 0x9c, 0xbe, 
  0x53, 0x36, 0xb3, 0xbe, 0x10, 0x8e, 0x9b, 0x3e, 0x79, 0x1c, 0xad, 0x3d, 
  0x07, 0xe0, 0x0f, 0xbe, 0x16, 0xc3, 0x29, 0xbf, 0xfd, 0x53, 0x80, 0xbe, 
  0x80, 0xb6, 0xa6, 0xbe, 0x74, 0x59, 0xf3, 0xbe, 0x38, 0x06, 0xbc, 0x3d, 
  0xfb, 0x6d, 0x18, 0xbe, 0xc5, 0x10, 0x7c, 0x3e, 0x89, 0xce, 0x17, 0xbe, 
  0xf9, 0x27, 0x6f, 0x3d, 0xed, 0xd4, 0x0c, 0x3f, 0x53, 0x48, 0xe3, 0xbd, 
  0x01, 0xc4, 0xcd, 0x3d, 0xbe, 0x66, 0xb6, 0xbe, 0xe1, 0x23, 0x41, 0xbf, 
  0xcb, 0x4b, 0x09, 0x3e, 0x62, 0xf7, 0x89, 0x3c, 0x45, 0xc0, 0x7b, 0x3f, 
  0x42, 0xfa, 0xfd, 0xbd, 0xc4, 0xab, 0xf4, 0x3d, 0xc3, 0xf2, 0x29, 0xbe, 
  0x54, 0x9c, 0xa6, 0x3e, 0x21, 0xca, 0xe2, 0x3d, 0x04, 0x61, 0x3f, 0xbe, 
  0x12, 0x79, 0x98, 0xbe, 0xca, 0xaa, 0x27, 0xbf, 0x54, 0x1c, 0x3d, 0x3d, 
  0x11, 0xbf, 0x01, 0x3c, 0x0c, 0x84, 0xc0, 0x3d, 0x80, 0x09, 0x04, 0x3e, 
  0xc0, 0x86, 0xa3, 0x3e, 0xb5, 0x12, 0xab, 0x3e, 0x86, 0x06, 0xe6, 0xbe, 
  0x75, 0x69, 0x11, 0xbe, 0x69, 0xaf, 0x97, 0xbb, 0x71, 0x27, 0xcb, 0x3e, 
  0x6e, 0xa3, 0x08, 0xbe, 0xf6, 0x2c, 0x08, 0xbf, 0xe2, 0x77, 0x82, 0xbe, 
  0x33, 0xd0, 0xc9, 0x3c, 0xf3, 0xf1, 0x99, 0x3e, 0x12, 0xf7, 0x1d, 0x3e, 
  0x7c, 0xa6, 0x60, 0x3e, 0x63, 0x2d, 0x0f, 0x3e, 0xd8, 0x1b, 0x8a, 0x3e, 
  0x31, 0xfb, 0x80, 0xbd, 0xc8, 0xfe, 0x41, 0x3e, 0x17, 0xe2, 0xf1, 0x3e, 
  0x91, 0x37, 0x0c, 0x3f, 0x45, 0x14, 0xea, 0x3e, 0xf3, 0x0a, 0x10, 0xbe, 
  0x91, 0x07, 0xc2, 0x3e, 0xb5, 0xb5, 0x55, 0x3e, 0xd3, 0x6a, 0x7b, 0x3d, 
  0x99, 0x69, 0x5c, 0x3e, 0x59, 0xf7, 0xd0, 0x3e, 0xb5, 0x5c, 0x98, 0xbd, 
  0xec, 0x08, 0x52, 0x3e, 0x6f, 0x81, 0x8f, 0xbe, 0x75, 0xb2, 0x8a, 0x3e, 
  0x6e, 0xe9, 0xb4, 0x3e, 0x9a, 0x4a, 0xa5, 0x3e, 0xbf, 0xb4, 0x89, 0x3e, 
  0x95, 0x1a, 0x86, 0xbd, 0x98, 0xc5, 0x45, 0xbe, 0x1f, 0x63, 0x66, 0x3e, 
  0x79, 0x4b, 0xac, 0x3c, 0x10, 0xd4, 0x10, 0x3e, 0x54, 0xd3, 0x44, 0xbe, 
  0xe6, 0xd4, 0x35, 0x3e, 0x96, 0x60, 0x82, 0xbe, 0x41, 0x32, 0xac, 0x3e, 
  0xf2, 0xb8, 0xff, 0x3c, 0xfd, 0x4f, 0xd8, 0xbe, 0x6f, 0x13, 0xed, 0x3e, 
  0x2b, 0x5f, 0xff, 0x3a, 0xd9, 0x3c, 0xa1, 0x3e, 0x95, 0x78, 0x98, 0x3e, 
  0xea, 0xe7, 0xd6, 0xbd, 0x86, 0xf3, 0xfc, 0x3d, 0x81, 0x26, 0x02, 0x3f, 
  0xfc, 0xf1, 0x00, 0x3f, 0x4b, 0x7b, 0xab, 0x3e, 0x0d, 0xc2, 0x97, 0x3b, 
  0x2a, 0xfe, 0xf9, 0x3c, 0x04, 0x3b, 0xab, 0x3e, 0xc5, 0x5d, 0xbc, 0xbd, 
  0xde, 0xd0, 0xd7, 0x3e, 0xd5, 0x52, 0x1c, 0x3f, 0x94, 0x07, 0x68, 0xbd, 
  0xf4, 0x3d, 0x3a, 0x3e, 0x0c, 0x2f, 0xad, 0x3e, 0x99, 0x17, 0x78, 0xbc, 
  0x80, 0x78, 0x92, 0x3e, 0xc9, 0x3e, 0x2b, 0xbe, 0xce, 0xf8, 0xc0, 0x3e, 
  0x94, 0xad, 0x89, 0xbe, 0xda, 0x63, 0x2d, 0xbe, 0x7d, 0xa6, 0x25, 0x3f, 
  0x92, 0xea, 0xe1, 0x3e, 0x4a, 0x4c, 0xa7, 0xbd, 0x17, 0x88, 0xa1, 0xbd, 
  0x0d, 0xb3, 0xcf, 0xbe, 0x21, 0xd8, 0xd3, 0xbd, 0xf7, 0xb3, 0xb3, 0x3d, 
  0x47, 0xe0, 0x61, 0x3e, 0xce, 0x16, 0xdf, 0x3d, 0x11, 0x83, 0xc7, 0x3e, 
  0xec, 0x25, 0x90, 0x3d, 0xae, 0xd6, 0x84, 0x3e, 0x5c, 0xd9, 0xaa, 0x3d, 
  0xbf, 0x0c, 0xc3, 0x3e, 0xdc, 0x5d, 0xb9, 0x3e, 0xbc, 0x4a, 0x27, 0x3f, 
  0x23, 0xd5, 0x8b, 0x3e, 0x5a, 0xa6, 0x95, 0xbe, 0x34, 0x2c, 0xa1, 0xbd, 
  0xdb, 0xaa, 0xbd, 0x3e, 0xba, 0xd4, 0xb8, 0x3e, 0x12, 0xea, 0x19, 0x3e, 
  0xa4, 0xd5, 0xc2, 0x3e, 0x9f, 0xcf, 0xa5, 0xbe, 0x4d, 0x5b, 0xa3, 0xbe, 
  0x77, 0x06, 0xc8, 0xbd, 0x9d, 0xc3, 0x80, 0x3e, 0x79, 0x93, 0x13, 0x3e, 
  0x00, 0x55, 0xb1, 0xbd, 0x4c, 0x91, 0xce, 0x3e, 0xa3, 0x2a, 0x4e, 0x3e, 
  0xaf, 0x9b, 0xaa, 0xbe, 0xb5, 0x92, 0xcb, 0x3e, 0x7e, 0x76, 0x98, 0x3e, 
  0x79, 0xc0, 0x8e, 0xbd, 0x4a, 0xa7, 0x09, 0xbe, 0x0e, 0x2b, 0x4a, 0x3c, 
  0xfd, 0x71, 0x20, 0xbe, 0x49, 0xfa, 0x35, 0x3f, 0x45, 0x4e, 0xa0, 0xbe, 
  0x42, 0x24, 0x49, 0x3e, 0xcc, 0x5b, 0xec, 0x3c, 0xb5, 0x58, 0x8c, 0x3e, 
  0x1a, 0xb6, 0x70, 0x3e, 0x12, 0x1f, 0x8b, 0x3e, 0xd6, 0x12, 0x5c, 0x3d, 
  0x40, 0x3c, 0x46, 0x3e, 0xbe, 0xf1, 0xe4, 0x3e, 0x2e, 0x54, 0xde, 0x3d, 
  0x57, 0xd2, 0x44, 0x3e, 0x38, 0xc9, 0xa3, 0x3d, 0xd6, 0x90, 0x20, 0xbd, 
  0x3c, 0xec, 0xc1, 0x3e, 0x10, 0x9d, 0x82, 0x3d, 0x0b, 0xd8, 0x34, 0x3e, 
  0xa7, 0x14, 0x5e, 0xbe, 0x6a, 0xe4, 0xdb, 0xbe, 0x7a, 0x2c, 0xd6, 0x3e, 
  0xf4, 0x65, 0x69, 0x3e, 0xbc, 0x64, 0xf0, 0xbd, 0x82, 0xb2, 0x80, 0x3e, 
  0xbf, 0xbb, 0x9c, 0x3e, 0xb9, 0xc7, 0xbb, 0x3e, 0xe2, 0xc9, 0x8a, 0xbd, 
  0xe6, 0x69, 0xc3, 0x3e, 0x3c, 0x38, 0x1c, 0x3f, 0xa7, 0xda, 0x19, 0xbe, 
  0xe1, 0x58, 0x09, 0xbe, 0x20, 0x41, 0x5f, 0xbd, 0x47, 0x9d, 0x8c, 0xbd, 
  0xf9, 0x63, 0x16, 0x3e, 0x48, 0x98, 0x79, 0x3e, 0xf3, 0x5d, 0x33, 0x3d, 
  0xaa, 0x93, 0x51, 0x3d, 0x1b, 0x77, 0xd4, 0x3d, 0x3c, 0xbe, 0xaa, 0x3e, 
  0x6b, 0x85, 0xb0, 0x3e, 0x1c, 0xf8, 0xa6, 0xbe, 0x1f, 0xca, 0xea, 0xbe, 
  0xba, 0x38, 0xba, 0xbe, 0x99, 0xfe, 0x1b, 0x3e, 0x3a, 0xa8, 0x05, 0xbe, 
  0xce, 0x11, 0x80, 0xbd, 0xb3, 0x82, 0x39, 0x3b, 0x3a, 0xb2, 0x00, 0x3e, 
  0xfc, 0xf6, 0xab, 0xbb, 0xba, 0x76, 0x11, 0xbe, 0x7c, 0xac, 0x2a, 0xbe, 
  0xdd, 0xdc, 0x4f, 0x3e, 0x52, 0x8b, 0x58, 0x3e, 0xd6, 0x28, 0xc3, 0xbc, 
  0x39, 0x5c, 0x0b, 0xbe, 0xf7, 0xe1, 0xd1, 0x3e, 0x00, 0xab, 0xb7, 0xbd, 
  0x80, 0xc4, 0x5d, 0x3e, 0x99, 0xf9, 0x13, 0x3e, 0x1a, 0xa4, 0xdb, 0xbd, 
  0xed, 0x5e, 0x0e, 0x3e, 0x18, 0xb3, 0x11, 0x3d, 0x26, 0x58, 0x5b, 0x3e, 
  0x8a, 0x17, 0x7f, 0xbe, 0xae, 0x3d, 0x07, 0x3e, 0x10, 0xe7, 0x00, 0xbe, 
  0x2e, 0x30, 0x75, 0xbd, 0x8d, 0xd5, 0xb8, 0x3e, 0x0d, 0xed, 0x7b, 0xbd, 
  0x88, 0x06, 0x64, 0xbe, 0xe7, 0xe2, 0xf3, 0x3e, 0x0c, 0xe5, 0x6f, 0x3e, 
  0x8d, 0xea, 0x46, 0xbe, 0xc2, 0xd2, 0x5e, 0x3e, 0x05, 0x33, 0xf3, 0xbc, 
  0x7c, 0x80, 0xc1, 0xbc, 0x81, 0x01, 0x9a, 0xbe, 0x4d, 0x84, 0x8d, 0x3e, 
  0x7b, 0x73, 0xa3, 0x3e, 0x64, 0x51, 0xd3, 0xbb, 0xd6, 0xf3, 0x83, 0xbd, 
  0x97, 0x5f, 0xcc, 0xbe, 0xca, 0x24, 0x3a, 0x3e, 0xa5, 0x3f, 0x46, 0x3e, 
  0x28, 0xca, 0x64, 0xbe, 0xa8, 0x65, 0xe0, 0xbd, 0x8e, 0x5e, 0x82, 0x3d, 
  0xf2, 0x9a, 0xc8, 0xbb, 0xf0, 0xc3, 0xf6, 0xbd, 0xc7, 0x19, 0x53, 0x3e, 
  0xce, 0x9e, 0x97, 0x3e, 0x9a, 0x68, 0x4b, 0xbe, 0x7b, 0x32, 0x6a, 0xbe, 
  0x0b, 0x45, 0x00, 0x3e, 0x5d, 0xf8, 0x83, 0x3e, 0x00, 0x00, 0x06, 0x00, 
  0x08, 0x00, 0x04, 0x00, 0x06, 0x00, 0x00, 0x00, 0x04, 0x00, 0x00, 0x00, 
  0x40, 0x00, 0x00, 0x00, 0x4e, 0x84, 0xb7, 0x3e, 0x22, 0x0a, 0x5d, 0xbf, 
  0x06, 0x85, 0x65, 0xbe, 0x39, 0x73, 0x37, 0xbd, 0x9e, 0xa9, 0xfc, 0xbe, 
  0xb4, 0xa1, 0x12, 0xbf, 0x52, 0xfe, 0xbe, 0x3e, 0x51, 0xf5, 0x36, 0x3f, 
  0x12, 0xbf, 0x74, 0xbe, 0x0e, 0x80, 0x27, 0xbf, 0xc3, 0xf4, 0xa5, 0x3e, 
  0xe7, 0xdb, 0xee, 0x3e, 0x0e, 0x90, 0xe7, 0x3e, 0x32, 0x75, 0x2e, 0x3f, 
  0x79, 0x46, 0x84, 0xbd, 0xc7, 0x57, 0xd8, 0xbd, 0x20, 0xfb, 0xff, 0xff, 
  0x24, 0xfb, 0xff, 0xff, 0x0f, 0x00, 0x00, 0x00, 0x4d, 0x4c, 0x49, 0x52, 
  0x20, 0x43, 0x6f, 0x6e, 0x76, 0x65, 0x72, 0x74, 0x65, 0x64, 0x2e, 0x00, 
  0x01, 0x00, 0x00, 0x00, 0x14, 0x00, 0x00, 0x00, 0x00, 0x00, 0x0e, 0x00, 
  0x18, 0x00, 0x14, 0x00, 0x10, 0x00, 0x0c, 0x00, 0x08, 0x00, 0x04, 0x00, 
  0x0e, 0x00, 0x00, 0x00, 0x14, 0x00, 0x00, 0x00, 0x1c, 0x00, 0x00, 0x00, 
  0xe8, 0x00, 0x00, 0x00, 0xec, 0x00, 0x00, 0x00, 0xf0, 0x00, 0x00, 0x00, 
  0x04, 0x00, 0x00, 0x00, 0x6d, 0x61, 0x69, 0x6e, 0x00, 0x00, 0x00, 0x00, 
  0x03, 0x00, 0x00, 0x00, 0x90, 0x00, 0x00, 0x00, 0x48, 0x00, 0x00, 0x00, 
  0x04, 0x00, 0x00, 0x00, 0xce, 0xff, 0xff, 0xff, 0x10, 0x00, 0x00, 0x00, 
  0x00, 0x00, 0x00, 0x08, 0x0c, 0x00, 0x00, 0x00, 0x10, 0x00, 0x00, 0x00, 
  0x9c, 0xfb, 0xff, 0xff, 0x01, 0x00, 0x00, 0x00, 0x09, 0x00, 0x00, 0x00, 
  0x03, 0x00, 0x00, 0x00, 0x08, 0x00, 0x00, 0x00, 0x01, 0x00, 0x00, 0x00, 
  0x03, 0x00, 0x00, 0x00, 0x00, 0x00, 0x0e, 0x00, 0x14, 0x00, 0x00, 0x00, 
  0x10, 0x00, 0x0c, 0x00, 0x0b, 0x00, 0x04, 0x00, 0x0e, 0x00, 0x00, 0x00, 
  0x10, 0x00, 0x00, 0x00, 0x00, 0x00, 0x00, 0x08, 0x10, 0x00, 0x00, 0x00, 
  0x14, 0x00, 0x00, 0x00, 0xba, 0xff, 0xff, 0xff, 0x00, 0x00, 0x00, 0x01, 
  0x01, 0x00, 0x00, 0x00, 0x08, 0x00, 0x00, 0x00, 0x03, 0x00, 0x00, 0x00, 
  0x07, 0x00, 0x00, 0x00, 0x02, 0x00, 0x00, 0x00, 0x04, 0x00, 0x00, 0x00, 
  0x00, 0x00, 0x0e, 0x00, 0x16, 0x00, 0x00, 0x00, 0x10, 0x00, 0x0c, 0x00, 
  0x0b, 0x00, 0x04, 0x00, 0x0e, 0x00, 0x00, 0x00, 0x18, 0x00, 0x00, 0x00, 
  0x00, 0x00, 0x00, 0x08, 0x18, 0x00, 0x00, 0x00, 0x1c, 0x00, 0x00, 0x00, 
  0x00, 0x00, 0x06, 0x00, 0x08, 0x00, 0x07, 0x00, 0x06, 0x00, 0x00, 0x00, 
  0x00, 0x00, 0x00, 0x01, 0x01, 0x00, 0x00, 0x00, 0x07, 0x00, 0x00, 0x00, 
  0x03, 0x00, 0x00, 0x00, 0x00, 0x00, 0x00, 0x00, 0x06, 0x00, 0x00, 0x00, 
  0x05, 0x00, 0x00, 0x00, 0x01, 0x00, 0x00, 0x00, 0x09, 0x00, 0x00, 0x00, 
  0x01, 0x00, 0x00, 0x00, 0x00, 0x00, 0x00, 0x00, 0x0a, 0x00, 0x00, 0x00, 
  0x7c, 0x03, 0x00, 0x00, 0x24, 0x03, 0x00, 0x00, 0xcc, 0x02, 0x00, 0x00, 
  0x90, 0x02, 0x00, 0x00, 0x34, 0x02, 0x00, 0x00, 0xdc, 0x01, 0x00, 0x00, 
  0x90, 0x01, 0x00, 0x00, 0xfc, 0x00, 0x00, 0x00, 0x60, 0x00, 0x00, 0x00, 
  0x04, 0x00, 0x00, 0x00, 0xc2, 0xfc, 0xff, 0xff, 0x00, 0x00, 0x00, 0x01, 
  0x14, 0x00, 0x00, 0x00, 0x1c, 0x00, 0x00, 0x00, 0x1c, 0x00, 0x00, 0x00, 
  0x0a, 0x00, 0x00, 0x00, 0x34, 0x00, 0x00, 0x00, 0x02, 0x00, 0x00, 0x00, 
  0xff, 0xff, 0xff, 0xff, 0x01, 0x00, 0x00, 0x00, 0xac, 0xfc, 0xff, 0xff, 
  0x1b, 0x00, 0x00, 0x00, 0x53, 0x74, 0x61, 0x74, 0x65, 0x66, 0x75, 0x6c, 
  0x50, 0x61, 0x72, 0x74, 0x69, 0x74, 0x69, 0x6f, 0x6e, 0x65, 0x64, 0x43, 
  0x61, 0x6c, 0x6c, 0x5f, 0x31, 0x3a, 0x30, 0x00, 0x02, 0x00, 0x00, 0x00, 
  0x01, 0x00, 0x00, 0x00, 0x01, 0x00, 0x00, 0x00, 0x1a, 0xfd, 0xff, 0xff, 
  0x00, 0x00, 0x00, 0x01, 0x14, 0x00, 0x00, 0x00, 0x1c, 0x00, 0x00, 0x00, 
  0x1c, 0x00, 0x00, 0x00, 0x09, 0x00, 0x00, 0x00, 0x74, 0x00, 0x00, 0x00, 
  0x02, 0x00, 0x00, 0x00, 0xff, 0xff, 0xff, 0xff, 0x10, 0x00, 0x00, 0x00, 
  0x04, 0xfd, 0xff, 0xff, 0x58, 0x00, 0x00, 0x00, 0x73, 0x65, 0x71, 0x75, 
  0x65, 0x6e, 0x74, 0x69, 0x61, 0x6c, 0x5f, 0x31, 0x2f, 0x64, 0x65, 0x6e, 
  0x73, 0x65, 0x5f, 0x31, 0x5f, 0x32, 0x2f, 0x4d, 0x61, 0x74, 0x4d, 0x75, 
  0x6c, 0x3b, 0x73, 0x65, 0x71, 0x75, 0x65, 0x6e, 0x74, 0x69, 0x61, 0x6c, 
  0x5f, 0x31, 0x2f, 0x64, 0x65, 0x6e, 0x73, 0x65, 0x5f, 0x31, 0x5f, 0x32, 
  0x2f, 0x52, 0x65, 0x6c, 0x75, 0x3b, 0x73, 0x65, 0x71, 0x75, 0x65, 0x6e, 
  0x74, 0x69, 0x61, 0x6c, 0x5f, 0x31, 0x2f, 0x64, 0x65, 0x6e, 0x73, 0x65, 
  0x5f, 0x31, 0x5f, 0x32, 0x2f, 0x42, 0x69, 0x61, 0x73, 0x41, 0x64, 0x64, 
  0x00, 0x00, 0x00, 0x00, 0x02, 0x00, 0x00, 0x00, 0x01, 0x00, 0x00, 0x00, 
  0x10, 0x00, 0x00, 0x00, 0xb2, 0xfd, 0xff, 0xff, 0x00, 0x00, 0x00, 0x01, 
  0x14, 0x00, 0x00, 0x00, 0x1c, 0x00, 0x00, 0x00, 0x1c, 0x00, 0x00, 0x00, 
  0x08, 0x00, 0x00, 0x00, 0x6c, 0x00, 0x00, 0x00, 0x02, 0x00, 0x00, 0x00, 
  0xff, 0xff, 0xff, 0xff, 0x20, 0x00, 0x00, 0x00, 0x9c, 0xfd, 0xff, 0xff, 
  0x52, 0x00, 0x00, 0x00, 0x73, 0x65, 0x71, 0x75, 0x65, 0x6e, 0x74, 0x69, 
  0x61, 0x6c, 0x5f, 0x31, 0x2f, 0x64, 0x65, 0x6e, 0x73, 0x65, 0x5f, 0x31, 
  0x2f, 0x4d, 0x61, 0x74, 0x4d, 0x75, 0x6c, 0x3b, 0x73, 0x65, 0x71, 0x75, 
  0x65, 0x6e, 0x74, 0x69, 0x61, 0x6c, 0x5f, 0x31, 0x2f, 0x64, 0x65, 0x6e, 
  0x73, 0x65, 0x5f, 0x31, 0x2f, 0x52, 0x65, 0x6c, 0x75, 0x3b, 0x73, 0x65, 
  0x71, 0x75, 0x65, 0x6e, 0x74, 0x69, 0x61, 0x6c, 0x5f, 0x31, 0x2f, 0x64, 
  0x65, 0x6e, 0x73, 0x65, 0x5f, 0x31, 0x2f, 0x42, 0x69, 0x61, 0x73, 0x41, 
  0x64, 0x64, 0x00, 0x00, 0x02, 0x00, 0x00, 0x00, 0x01, 0x00, 0x00, 0x00, 
  0x20, 0x00, 0x00, 0x00, 0x96, 0xfe, 0xff, 0xff, 0x00, 0x00, 0x00, 0x01, 
  0x10, 0x00, 0x00, 0x00, 0x10, 0x00, 0x00, 0x00, 0x07, 0x00, 0x00, 0x00, 
  0x28, 0x00, 0x00, 0x00, 0x1c, 0xfe, 0xff, 0xff, 0x1b, 0x00, 0x00, 0x00, 
  0x73, 0x65, 0x71, 0x75, 0x65, 0x6e, 0x74, 0x69, 0x61, 0x6c, 0x5f, 0x31, 
  0x2f, 0x64, 0x65, 0x6e, 0x73, 0x65, 0x5f, 0x31, 0x2f, 0x4d, 0x61, 0x74, 
  0x4d, 0x75, 0x6c, 0x00, 0x02, 0x00, 0x00, 0x00, 0x20, 0x00, 0x00, 0x00, 
  0x16, 0x00, 0x00, 0x00, 0xde, 0xfe, 0xff, 0xff, 0x00, 0x00, 0x00, 0x01, 
  0x10, 0x00, 0x00, 0x00, 0x10, 0x00, 0x00, 0x00, 0x06, 0x00, 0x00, 0x00, 
  0x38, 0x00, 0x00, 0x00, 0x64, 0xfe, 0xff, 0xff, 0x2b, 0x00, 0x00, 0x00, 
  0x73, 0x65, 0x71, 0x75, 0x65, 0x6e, 0x74, 0x69, 0x61, 0x6c, 0x5f, 0x31, 
  0x2f, 0x64, 0x65, 0x6e, 0x73, 0x65, 0x5f, 0x31, 0x2f, 0x42, 0x69, 0x61, 
  0x73, 0x41, 0x64, 0x64, 0x2f, 0x52, 0x65, 0x61, 0x64, 0x56, 0x61, 0x72, 
  0x69, 0x61, 0x62, 0x6c, 0x65, 0x4f, 0x70, 0x00, 0x01, 0x00, 0x00, 0x00, 
  0x20, 0x00, 0x00, 0x00, 0x32, 0xff, 0xff, 0xff, 0x00, 0x00, 0x00, 0x01, 
  0x10, 0x00, 0x00, 0x00, 0x10, 0x00, 0x00, 0x00, 0x05, 0x00, 0x00, 0x00, 
  0x3c, 0x00, 0x00, 0x00, 0xb8, 0xfe, 0xff, 0xff, 0x2d, 0x00, 0x00, 0x00, 
  0x73, 0x65, 0x71, 0x75, 0x65, 0x6e, 0x74, 0x69, 0x61, 0x6c, 0x5f, 0x31, 
  0x2f, 0x64, 0x65, 0x6e, 0x73, 0x65, 0x5f, 0x31, 0x5f, 0x32, 0x2f, 0x42, 
  0x69, 0x61, 0x73, 0x41, 0x64, 0x64, 0x2f, 0x52, 0x65, 0x61, 0x64, 0x56, 
  0x61, 0x72, 0x69, 0x61, 0x62, 0x6c, 0x65, 0x4f, 0x70, 0x00, 0x00, 0x00, 
  0x01, 0x00, 0x00, 0x00, 0x10, 0x00, 0x00, 0x00, 0x8a, 0xff, 0xff, 0xff, 
  0x00, 0x00, 0x00, 0x01, 0x10, 0x00, 0x00, 0x00, 0x10, 0x00, 0x00, 0x00, 
  0x04, 0x00, 0x00, 0x00, 0x1c, 0x00, 0x00, 0x00, 0x10, 0xff, 0xff, 0xff, 
  0x0f, 0x00, 0x00, 0x00, 0x61, 0x72, 0x69, 0x74, 0x68, 0x2e, 0x63, 0x6f, 
  0x6e, 0x73, 0x74, 0x61, 0x6e, 0x74, 0x32, 0x00, 0x01, 0x00, 0x00, 0x00, 
  0x01, 0x00, 0x00, 0x00, 0xc2, 0xff, 0xff, 0xff, 0x00, 0x00, 0x00, 0x01, 
  0x10, 0x00, 0x00, 0x00, 0x10, 0x00, 0x00, 0x00, 0x03, 0x00, 0x00, 0x00, 
  0x1c, 0x00, 0x00, 0x00, 0x48, 0xff, 0xff, 0xff, 0x0f, 0x00, 0x00, 0x00, 
  0x61, 0x72, 0x69, 0x74, 0x68, 0x2e, 0x63, 0x6f, 0x6e, 0x73, 0x74, 0x61, 
  0x6e, 0x74, 0x31, 0x00, 0x02, 0x00, 0x00, 0x00, 0x10, 0x00, 0x00, 0x00, 
  0x20, 0x00, 0x00, 0x00, 0x00, 0x00, 0x16, 0x00, 0x18, 0x00, 0x14, 0x00, 
  0x00, 0x00, 0x10, 0x00, 0x0c, 0x00, 0x08, 0x00, 0x00, 0x00, 0x00, 0x00, 
  0x00, 0x00, 0x07, 0x00, 0x16, 0x00, 0x00, 0x00, 0x00, 0x00, 0x00, 0x01, 
  0x10, 0x00, 0x00, 0x00, 0x10, 0x00, 0x00, 0x00, 0x02, 0x00, 0x00, 0x00, 
  0x1c, 0x00, 0x00, 0x00, 0x9c, 0xff, 0xff, 0xff, 0x0e, 0x00, 0x00, 0x00, 
  0x61, 0x72, 0x69, 0x74, 0x68, 0x2e, 0x63, 0x6f, 0x6e, 0x73, 0x74, 0x61, 
  0x6e, 0x74, 0x00, 0x00, 0x02, 0x00, 0x00, 0x00, 0x01, 0x00, 0x00, 0x00, 
  0x10, 0x00, 0x00, 0x00, 0x00, 0x00, 0x16, 0x00, 0x1c, 0x00, 0x18, 0x00, 
  0x00, 0x00, 0x14, 0x00, 0x10, 0x00, 0x0c, 0x00, 0x00, 0x00, 0x00, 0x00, 
  0x08, 0x00, 0x07, 0x00, 0x16, 0x00, 0x00, 0x00, 0x00, 0x00, 0x00, 0x01, 
  0x14, 0x00, 0x00, 0x00, 0x20, 0x00, 0x00, 0x00, 0x20, 0x00, 0x00, 0x00, 
  0x01, 0x00, 0x00, 0x00, 0x3c, 0x00, 0x00, 0x00, 0x02, 0x00, 0x00, 0x00, 
  0xff, 0xff, 0xff, 0xff, 0x16, 0x00, 0x00, 0x00, 0x04, 0x00, 0x04, 0x00, 
  0x04, 0x00, 0x00, 0x00, 0x1d, 0x00, 0x00, 0x00, 0x73, 0x65, 0x72, 0x76, 
  0x69, 0x6e, 0x67, 0x5f, 0x64, 0x65, 0x66, 0x61, 0x75, 0x6c, 0x74, 0x5f, 
  0x69, 0x6e, 0x70, 0x75, 0x74, 0x5f, 0x6c, 0x61, 0x79, 0x65, 0x72, 0x3a, 
  0x30, 0x00, 0x00, 0x00, 0x02, 0x00, 0x00, 0x00, 0x01, 0x00, 0x00, 0x00, 
  0x16, 0x00, 0x00, 0x00, 0x01, 0x00, 0x00, 0x00, 0x10, 0x00, 0x00, 0x00, 
  0x0c, 0x00, 0x0c, 0x00, 0x0b, 0x00, 0x00, 0x00, 0x00, 0x00, 0x04, 0x00, 
  0x0c, 0x00, 0x00, 0x00, 0x09, 0x00, 0x00, 0x00, 0x00, 0x00, 0x00, 0x09, 
};

const unsigned int model_data_len = 7020;

#endif  // MODEL_DATA_H
